{"version": "strong-tokenizer-v1", "vocab_size": 8192, "word_to_id": {"<PAD>": 0, "<UNK>": 1, "<BOS>": 2, "<EOS>": 3, "<SEP>": 4, "<MASK>": 5, "ا": 6, "ه": 7, "ر": 8, "ي": 9, "م": 10, "و": 11, "ل": 12, "ن": 13, "ب": 14, "س": 15, "ت": 16, "ق": 17, "ع": 18, "ف": 19, "ط": 20, "د": 21, "ۡ": 22, "ج": 23, "ح": 24, "1": 25, "2": 26, "ك": 27, "_": 28, "r": 29, "q": 30, "u": 31, "a": 32, "n": 33, "3": 34, "5": 35, "4": 36, "ض": 37, "7": 38, "6": 39, "ء": 40, "8": 41, "0": 42, "9": 43, "ش": 44, "ص": 45, "ذ": 46, "ث": 47, "ز": 48, "غ": 49, "ظ": 50, "ئ": 51, "خ": 52, "۟": 53, "ؤ": 54, "o": 55, "ۭ": 56, "t": 57, ":": 58, "ۦ": 59, "ۢ": 60, "ۥ": 61, "سوره": 62, "ايه": 63, "مرتبطه": 64, "من": 65, "في": 66, "quran": 67, "مفهوم": 68, "عنقود": 69, "القران": 70, "بين": 71, "توجد": 72, "علاقه": 73, "ضمن": 74, "وسوره": 75, "البقره": 76, "الكريم": 77, "يندرج": 78, "وايه": 79, "المفاهيم": 80, "الانۡعام": 81, "المرتبطه": 82, "بمجال": 83, "الشعراء": 84, "محور": 85, "الاعۡراف": 86, "ينتمي": 87, "لموضوع": 88, "الملاحظ": 89, "اقتران": 90, "مواضع": 91, "كثيره": 92, "السياق": 93, "النحۡل": 94, "الي": 95, "يصنف": 96, "15": 97, "ايات": 98, "تتكرر": 99, "جانب": 100, "القراني": 101, "يوسف": 102, "الرحۡمن": 103, "الله": 104, "النساء": 105, "ال": 106, "عمۡران": 107, "يرد": 108, "ذكر": 109, "مقترنا": 110, "عديده": 111, "12": 112, "الحجۡر": 113, "المائده": 114, "يونس": 115, "17": 116, "الواقعه": 117, "قريب": 118, "المعني": 119, "مرۡيم": 120, "التوۡبه": 121, "الاسۡراء": 122, "المعارج": 123, "25": 124, "42": 125, "الانفال": 126, "36": 127, "المؤۡمنون": 128, "الانبياء": 129, "الرعۡد": 130, "طه": 131, "الحج": 132, "37": 133, "الحاقه": 134, "23": 135, "27": 136, "الصافات": 137, "الذاريات": 138, "18": 139, "هود": 140, "فاطر": 141, "24": 142, "غافر": 143, "28": 144, "نوح": 145, "52": 146, "49": 147, "14": 148, "الفرۡقان": 149, "11": 150, "22": 151, "عليه": 152, "معرفه": 153, "10": 154, "30": 155, "نفس": 156, "77": 157, "78": 158, "31": 159, "70": 160, "33": 161, "المدثر": 162, "40": 163, "الارض": 164, "الاحۡزاب": 165, "58": 166, "62": 167, "75": 168, "الحديد": 169, "الشمۡس": 170, "الشوري": 171, "65": 172, "الغاشيه": 173, "93": 174, "97": 175, "43": 176, "26": 177, "72": 178, "68": 179, "موسي": 180, "38": 181, "يس": 182, "المطففين": 183, "البروج": 184, "21": 185, "النجۡم": 186, "20": 187, "الكهۡف": 188, "35": 189, "50": 190, "86": 191, "13": 192, "النور": 193, "56": 194, "الجن": 195, "المصنفه": 196, "تحت": 197, "النازعات": 198, "104": 199, "91": 200, "16": 201, "سبا": 202, "الزخۡرف": 203, "53": 204, "الحكيم": 205, "سماء": 206, "العليم": 207, "يتكرران": 208, "معا": 209, "العنكبوت": 210, "90": 211, "ايمان": 212, "القلم": 213, "46": 214, "كانوا۟": 215, "63": 216, "الجاثيه": 217, "57": 218, "الدخان": 219, "149": 220, "الطور": 221, "44": 222, "55": 223, "نار": 224, "الناس": 225, "يجمع": 226, "الانشقاق": 227, "32": 228, "69": 229, "ابۡراهيم": 230, "القيامه": 231, "98": 232, "الذي": 233, "root": 234, "114": 235, "السموت": 236, "100": 237, "القصص": 238, "76": 239, "19": 240, "طاقه": 241, "شمس": 242, "34": 243, "علي": 244, "يروا۟": 245, "82": 246, "كفر": 247, "عليهم": 248, "الحرام": 249, "105": 250, "29": 251, "51": 252, "73": 253, "الحشۡر": 254, "رجاء": 255, "النفس": 256, "الا": 257, "الليۡل": 258, "ولايه": 259, "نباتات": 260, "حضاره": 261, "قديمه": 262, "الكون": 263, "84": 264, "عباده": 265, "توحيد": 266, "الكفرين": 267, "كفروا۟": 268, "خلق": 269, "يوم": 270, "وليل": 271, "110": 272, "حقوق": 273, "دين": 274, "الماعون": 275, "بحر": 276, "قران": 277, "106": 278, "او۟لئك": 279, "ولكن": 280, "الزمر": 281, "169": 282, "انما": 283, "74": 284, "60": 285, "محبه": 286, "الليل": 287, "كون": 288, "61": 289, "45": 290, "85": 291, "كتاب": 292, "71": 293, "التحۡريم": 294, "ادم": 295, "64": 296, "للذين": 297, "الاحۡقاف": 298, "الجذر": 299, "اللغوي": 300, "فصلتۡ": 301, "48": 302, "173": 303, "81": 304, "بالله": 305, "يعلم": 306, "228": 307, "المزمل": 308, "العاديات": 309, "الرحيم": 310, "122": 311, "95": 312, "127": 313, "96": 314, "ينتميان": 315, "لنفس": 316, "المحور": 317, "الموضوعي": 318, "عبس": 319, "الرب": 320, "حرب": 321, "منع": 322, "علم": 323, "ءامنا": 324, "193": 325, "فيها": 326, "الكتب": 327, "47": 328, "يقوم": 329, "عليكم": 330, "شيۭا": 331, "جنه": 332, "133": 333, "وعملوا۟": 334, "نذر": 335, "شاء": 336, "116": 337, "150": 338, "172": 339, "تقوي": 340, "انفسهم": 341, "عذاب": 342, "سبيل": 343, "ربهۦ": 344, "سيره": 345, "هلاك": 346, "الامم": 347, "التكۡوير": 348, "السميع": 349, "الموضوع": 350, "الشيطن": 351, "انخفاض": 352, "وقت": 353, "القدير": 354, "54": 355, "للطلاب": 356, "واخير": 357, "النبا": 358, "حق": 359, "الحي": 360, "القيوم": 361, "غذائي": 362, "غذاء": 363, "استغفار": 364, "تجاره": 365, "امه": 366, "طرق": 367, "الفجۡر": 368, "284": 369, "الايات": 370, "الطبيعيه": 371, "عليك": 372, "وما": 373, "التسبيح": 374, "التحقيق": 375, "والتمحيص": 376, "المهيمن": 377, "المسجد": 378, "164": 379, "الحق": 380, "حكمه": 381, "هادئ": 382, "محيط": 383, "العقل": 384, "والوحي": 385, "الايمان": 386, "والعقل": 387, "البينه": 388, "ارض": 389, "القدوس": 390, "148": 391, "نبوه": 392, "العزيز": 393, "انهم": 394, "رسول": 395, "رق": 396, "وعبوديه": 397, "مجتمع": 398, "118": 399, "اسحاق": 400, "يعقوب": 401, "الحضور": 402, "القلبي": 403, "روح": 404, "توكل": 405, "الءاخر": 406, "الصلوه": 407, "لجميع": 408, "وكائنات": 409, "البصير": 410, "الملۡك": 411, "179": 412, "القيمه": 413, "ولهم": 414, "الروح": 415, "الصدر": 416, "وحده": 417, "الضروره": 418, "والامكان": 419, "فلسفه": 420, "موضوع": 421, "واحد": 422, "قيام": 423, "والسكينه": 424, "الالهيه": 425, "النمۡل": 426, "كلاسيكيه": 427, "مجال": 428, "تعتمد": 429, "144": 430, "فرعون": 431, "المرۡسلات": 432, "109": 433, "اللطيف": 434, "هدۭي": 435, "180": 436, "جميعۭا": 437, "منكر": 438, "ونهي": 439, "عن": 440, "المنكر": 441, "بالحق": 442, "يظلمون": 443, "مكر": 444, "سلوك": 445, "يشاء": 446, "101": 447, "عليها": 448, "يعلمون": 449, "وانتم": 450, "الشرۡح": 451, "قوم": 452, "وزقوم": 453, "وحميم": 454, "رساله": 455, "هذا": 456, "التين": 457, "ايديهم": 458, "انا": 459, "بينهم": 460, "والله": 461, "155": 462, "حدود": 463, "دوليه": 464, "انبياء": 465, "عهد": 466, "بهۦ": 467, "124": 468, "منكم": 469, "242": 470, "41": 471, "103": 472, "120": 473, "القارعه": 474, "154": 475, "بايتنا": 476, "اوتوا۟": 477, "يايها": 478, "القمر": 479, "بعضهم": 480, "مقابل": 481, "انشاء": 482, "حاجه": 483, "وانتشر": 484, "العلق": 485, "عيسي": 486, "تذكر": 487, "وشكر": 488, "الصف": 489, "199": 490, "عفو": 491, "مصر": 492, "الروم": 493, "ماء": 494, "قضاء": 495, "وحكم": 496, "بارده": 497, "خيرۭا": 498, "92": 499, "197": 500, "108": 501, "هارون": 502, "وحي": 503, "ربنا": 504, "الملك": 505, "ومنهم": 506, "83": 507, "متحده": 508, "280": 509, "59": 510, "لقومۢ": 511, "التغابن": 512, "كذلك": 513, "احسان": 514, "اخلاق": 515, "دروس": 516, "متابعه": 517, "قالوا۟": 518, "جذر": 519, "لغويا": 520, "202": 521, "خشيه": 522, "حور": 523, "عين": 524, "اخره": 525, "194": 526, "والنهار": 527, "الزلۡزله": 528, "ضلال": 529, "165": 530, "ولقد": 531, "شفاعه": 532, "صدق": 533, "وفاء": 534, "الاحد": 535, "التنزيه": 536, "لهۥ": 537, "وتجاره": 538, "انفسكم": 539, "الحيوه": 540, "اكثرهم": 541, "شيءۢ": 542, "النار": 543, "المداومه": 544, "العباده": 545, "ثمود": 546, "اصحاب": 547, "السفينه": 548, "الطارق": 549, "الدنيا": 550, "تعملون": 551, "مساحه": 552, "الجنه": 553, "138": 554, "اليكم": 555, "يهدي": 556, "كثافه": 557, "اليك": 558, "مغذ": 559, "امن": 560, "قدره": 561, "192": 562, "160": 563, "130": 564, "تحتوي": 565, "ره": 566, "يه": 567, "سو": 568, "مر": 569, "تب": 570, "مرتب": 571, "ان": 572, "ران": 573, "اق": 574, "ين": 575, "qu": 576, "qur": 577, "qura": 578, "مف": 579, "الق": 580, "وم": 581, "ود": 582, "مفه": 583, "يم": 584, "الم": 585, "عل": 586, "عنق": 587, "تو": 588, "اقه": 589, "اء": 590, "كر": 591, "جد": 592, "ۡر": 593, "الن": 594, "الح": 595, "مو": 596, "الان": 597, "عا": 598, "رج": 599, "ات": 600, "الب": 601, "حۡ": 602, "ور": 603, "اف": 604, "البق": 605, "الش": 606, "ون": 607, "ده": 608, "الكر": 609, "اه": 610, "اهيم": 611, "الر": 612, "يند": 613, "نف": 614, "عر": 615, "وع": 616, "المف": 617, "يات": 618, "سي": 619, "تم": 620, "الل": 621, "مج": 622, "مح": 623, "ضوع": 624, "الانۡ": 625, "الانۡعا": 626, "لا": 627, "الشعر": 628, "ينتم": 629, "ير": 630, "كث": 631, "لمو": 632, "ار": 633, "مۡ": 634, "صنف": 635, "الاع": 636, "الاعۡر": 637, "اض": 638, "دي": 639, "الملا": 640, "الملاح": 641, "اقت": 642, "مواض": 643, "كثي": 644, "تكر": 645, "السي": 646, "النحۡ": 647, "اب": 648, "عه": 649, "وس": 650, "به": 651, "انب": 652, "فر": 653, "نا": 654, "تتكر": 655, "ائ": 656, "وح": 657, "وا": 658, "يوس": 659, "مق": 660, "بي": 661, "الرحۡ": 662, "النس": 663, "عمۡ": 664, "مقت": 665, "مقتر": 666, "عدي": 667, "مرۡ": 668, "المائ": 669, "يون": 670, "وا۟": 671, "الو": 672, "الواق": 673, "قر": 674, "قري": 675, "المعن": 676, "الك": 677, "الص": 678, "التو": 679, "التوۡ": 680, "الج": 681, "الاس": 682, "الاسۡر": 683, "الذ": 684, "المعا": 685, "الانف": 686, "ول": 687, "تح": 688, "المؤ": 689, "المؤۡ": 690, "المؤۡمن": 691, "با": 692, "الانبي": 693, "الرع": 694, "الرعۡ": 695, "ام": 696, "فا": 697, "طر": 698, "الصاف": 699, "كم": 700, "الذار": 701, "الاحۡ": 702, "النا": 703, "هم": 704, "فه": 705, "الز": 706, "الس": 707, "غاف": 708, "المد": 709, "الفر": 710, "الفرۡ": 711, "الفرۡق": 712, "معر": 713, "الت": 714, "شيه": 715, "الط": 716, "المدث": 717, "الار": 718, "فين": 719, "رو": 720, "جم": 721, "الاحۡز": 722, "ذر": 723, "مل": 724, "الحدي": 725, "الشمۡ": 726, "قو": 727, "فس": 728, "الشور": 729, "يع": 730, "العل": 731, "الغ": 732, "الغا": 733, "بو": 734, "اللي": 735, "القي": 736, "يمان": 737, "اره": 738, "قد": 739, "القل": 740, "كان": 741, "الع": 742, "حر": 743, "الد": 744, "المط": 745, "المطف": 746, "البرو": 747, "النج": 748, "النجۡ": 749, "الكه": 750, "الكهۡ": 751, "ۭا": 752, "المصنف": 753, "مس": 754, "الناز": 755, "النازعا": 756, "الزخ": 757, "الزخۡر": 758, "الحك": 759, "المو": 760, "لل": 761, "يتكر": 762, "العن": 763, "العنك": 764, "العنكبو": 765, "غذ": 766, "يمه": 767, "باده": 768, "التح": 769, "حي": 770, "خل": 771, "اد": 772, "الجا": 773, "الجاث": 774, "عون": 775, "الدخ": 776, "او": 777, "ءا": 778, "تاب": 779, "يجم": 780, "حد": 781, "الانش": 782, "الانشق": 783, "ابۡر": 784, "غو": 785, "غوي": 786, "ro": 787, "roo": 788, "السمو": 789, "القص": 790, "شي": 791, "انفس": 792, "الحر": 793, "سبي": 794, "الام": 795, "يط": 796, "الحش": 797, "القد": 798, "خير": 799, "الليۡ": 800, "نب": 801, "نبات": 802, "اس": 803, "تج": 804, "حض": 805, "قي": 806, "وال": 807, "هي": 808, "توحي": 809, "الكفر": 810, "العق": 811, "ولي": 812, "حقو": 813, "الما": 814, "او۟": 815, "او۟ل": 816, "او۟لئ": 817, "ولك": 818, "انم": 819, "لو": 820, "جميع": 821, "المل": 822, "در": 823}, "merges": [["ا", "ل"], ["ر", "ه"], ["ي", "ه"], ["س", "و"], ["سو", "ره"], ["ا", "يه"], ["م", "ر"], ["ط", "ه"], ["ت", "ب"], ["مر", "تب"], ["مرتب", "طه"], ["ا", "ن"], ["م", "ن"], ["ف", "ي"], ["ر", "ان"], ["ا", "ق"], ["ي", "ن"], ["q", "u"], ["qu", "r"], ["qur", "a"], ["qura", "n"], ["م", "ف"], ["ال", "ق"], ["و", "م"], ["ع", "ن"], ["الق", "ران"], ["و", "د"], ["مف", "ه"], ["مفه", "وم"], ["ي", "م"], ["ال", "م"], ["ع", "ل"], ["عن", "ق"], ["عنق", "ود"], ["ت", "و"], ["اق", "ه"], ["ب", "ين"], ["ا", "ء"], ["ك", "ر"], ["ج", "د"], ["تو", "جد"], ["عل", "اقه"], ["ۡ", "ر"], ["ال", "ن"], ["ال", "ا"], ["ال", "ح"], ["م", "و"], ["ال", "ان"], ["ع", "ا"], ["ض", "من"], ["ر", "ج"], ["ا", "ت"], ["ال", "ب"], ["ح", "ۡ"], ["و", "سوره"], ["و", "ر"], ["ا", "ف"], ["الب", "ق"], ["البق", "ره"], ["ال", "ش"], ["و", "ن"], ["د", "ه"], ["ال", "كر"], ["الكر", "يم"], ["ا", "ه"], ["اه", "يم"], ["ال", "ر"], ["ين", "د"], ["يند", "رج"], ["ن", "ف"], ["و", "ايه"], ["ع", "ر"], ["و", "ع"], ["ال", "مف"], ["المف", "اهيم"], ["ي", "ات"], ["س", "ي"], ["ت", "م"], ["ال", "ل"], ["م", "ج"], ["م", "ح"], ["1", "0"], ["ض", "وع"], ["الان", "ۡ"], ["الانۡ", "عا"], ["الانۡعا", "م"], ["مج", "ال"], ["ال", "مرتبطه"], ["ب", "مجال"], ["ل", "ا"], ["الش", "عر"], ["الشعر", "اء"], ["ين", "تم"], ["ينتم", "ي"], ["الح", "ج"], ["ي", "ر"], ["مح", "ور"], ["ك", "ث"], ["ل", "مو"], ["ا", "ر"], ["م", "ۡ"], ["ص", "نف"], ["الا", "ع"], ["الاع", "ۡر"], ["الاعۡر", "اف"], ["ا", "ض"], ["د", "ي"], ["لمو", "ضوع"], ["1", "2"], ["1", "5"], ["الم", "لا"], ["الملا", "ح"], ["الملاح", "ظ"], ["اق", "ت"], ["اقت", "ران"], ["مو", "اض"], ["مواض", "ع"], ["كث", "ي"], ["كثي", "ره"], ["ت", "كر"], ["ال", "ي"], ["ال", "سي"], ["السي", "اق"], ["الن", "حۡ"], ["النحۡ", "ل"], ["1", "7"], ["ا", "ب"], ["الل", "ه"], ["ع", "ه"], ["و", "س"], ["ب", "ه"], ["ان", "ب"], ["1", "4"], ["ي", "صنف"], ["ف", "ر"], ["ن", "ا"], ["ا", "يات"], ["ت", "تكر"], ["تتكر", "ر"], ["ج", "انب"], ["القران", "ي"], ["ا", "ئ"], ["و", "ح"], ["و", "ا"], ["ي", "وس"], ["يوس", "ف"], ["ذ", "كر"], ["م", "ق"], ["ب", "ي"], ["الر", "حۡ"], ["الرحۡ", "من"], ["الن", "س"], ["النس", "اء"], ["ع", "مۡ"], ["عمۡ", "ران"], ["ير", "د"], ["مق", "ت"], ["مقت", "ر"], ["مقتر", "نا"], ["ع", "دي"], ["عدي", "ده"], ["مر", "ۡ"], ["الحج", "ۡر"], ["الم", "ائ"], ["المائ", "ده"], ["ي", "ون"], ["يون", "س"], ["وا", "۟"], ["ال", "و"], ["الو", "اق"], ["الواق", "عه"], ["ق", "ر"], ["قر", "ي"], ["قري", "ب"], ["الم", "عن"], ["المعن", "ي"], ["1", "6"], ["4", "2"], ["2", "8"], ["ال", "ك"], ["مرۡ", "يم"], ["ال", "ص"], ["ال", "تو"], ["التو", "ۡ"], ["التوۡ", "به"], ["ال", "ج"], ["الا", "س"], ["الاس", "ۡر"], ["الاسۡر", "اء"], ["ال", "ذ"], ["الم", "عا"], ["المعا", "رج"], ["2", "5"], ["الان", "ف"], ["الانف", "ال"], ["و", "ل"], ["ت", "ح"], ["1", "8"], ["3", "6"], ["1", "9"], ["الم", "ؤ"], ["المؤ", "ۡ"], ["المؤۡ", "من"], ["المؤۡمن", "ون"], ["عل", "يه"], ["ب", "ا"], ["الان", "بي"], ["الانبي", "اء"], ["الر", "ع"], ["الرع", "ۡ"], ["الرعۡ", "د"], ["3", "7"], ["1", "3"], ["الح", "اقه"], ["ا", "م"], ["ف", "ا"], ["ط", "ر"], ["2", "3"], ["نف", "س"], ["2", "7"], ["الص", "اف"], ["الصاف", "ات"], ["ك", "م"], ["الذ", "ار"], ["الذار", "يات"], ["الا", "حۡ"], ["الن", "ا"], ["ه", "م"], ["ف", "ه"], ["ه", "ود"], ["فا", "طر"], ["ال", "ز"], ["ال", "س"], ["2", "4"], ["غ", "اف"], ["غاف", "ر"], ["الم", "د"], ["ن", "وح"], ["5", "2"], ["4", "9"], ["ال", "فر"], ["الفر", "ۡ"], ["الفرۡ", "ق"], ["الفرۡق", "ان"], ["1", "1"], ["2", "2"], ["عل", "ي"], ["م", "عر"], ["معر", "فه"], ["3", "0"], ["ال", "ت"], ["7", "7"], ["7", "8"], ["ش", "يه"], ["3", "1"], ["ال", "ط"], ["7", "0"], ["3", "3"], ["المد", "ث"], ["المدث", "ر"], ["4", "0"], ["الا", "ر"], ["الار", "ض"], ["في", "ن"], ["ر", "و"], ["ج", "م"], ["2", "0"], ["الاحۡ", "ز"], ["الاحۡز", "اب"], ["5", "8"], ["6", "2"], ["ذ", "ر"], ["7", "5"], ["ق", "وم"], ["م", "ل"], ["الح", "دي"], ["الحدي", "د"], ["الج", "ن"], ["الش", "مۡ"], ["الشمۡ", "س"], ["ق", "و"], ["ك", "فر"], ["ف", "س"], ["الش", "ور"], ["الشور", "ي"], ["ي", "ع"], ["م", "اء"], ["6", "5"], ["ال", "عل"], ["ال", "غ"], ["الغ", "ا"], ["الغا", "شيه"], ["ب", "و"], ["الل", "ي"], ["الق", "ي"], ["يم", "ان"], ["ا", "ره"], ["ام", "ه"], ["ق", "د"], ["الق", "ل"], ["9", "3"], ["ك", "ان"], ["9", "7"], ["4", "3"], ["ال", "ع"], ["ح", "ر"], ["ال", "د"], ["2", "6"], ["7", "2"], ["6", "8"], ["مو", "سي"], ["3", "8"], ["ي", "س"], ["الم", "ط"], ["المط", "ف"], ["المطف", "فين"], ["الب", "رو"], ["البرو", "ج"], ["2", "1"], ["الن", "ج"], ["النج", "ۡ"], ["النجۡ", "م"], ["الك", "ه"], ["الكه", "ۡ"], ["الكهۡ", "ف"], ["3", "5"], ["5", "0"], ["ۭ", "ا"], ["8", "6"], ["ش", "اء"], ["عل", "م"], ["الن", "ور"], ["5", "6"], ["الم", "صنف"], ["المصنف", "ه"], ["تح", "ت"], ["م", "س"], ["النا", "ز"], ["الناز", "عا"], ["النازعا", "ت"], ["10", "4"], ["9", "1"], ["س", "با"], ["الز", "خ"], ["الزخ", "ۡر"], ["الزخۡر", "ف"], ["5", "3"], ["الح", "ك"], ["الحك", "يم"], ["الم", "و"], ["المو", "ضوع"], ["س", "ماء"], ["العل", "يم"], ["ل", "ل"], ["ي", "تكر"], ["يتكر", "ران"], ["م", "عا"], ["ال", "عن"], ["العن", "ك"], ["العنك", "بو"], ["العنكبو", "ت"], ["9", "0"], ["غ", "ذ"], ["ا", "يمان"], ["يم", "ه"], ["القل", "م"], ["4", "6"], ["با", "ده"], ["ال", "تح"], ["ح", "ي"], ["كان", "وا۟"], ["خ", "ل"], ["ا", "د"], ["6", "3"], ["الج", "ا"], ["الجا", "ث"], ["الجاث", "يه"], ["5", "7"], ["ع", "ون"], ["الد", "خ"], ["الدخ", "ان"], ["14", "9"], ["الط", "ور"], ["ا", "و"], ["4", "4"], ["5", "5"], ["ء", "ا"], ["ن", "ار"], ["النا", "س"], ["ت", "اب"], ["ي", "جم"], ["يجم", "ع"], ["ح", "د"], ["الان", "ش"], ["الانش", "ق"], ["الانشق", "اق"], ["3", "2"], ["6", "9"], ["اب", "ۡر"], ["ابۡر", "اهيم"], ["القي", "امه"], ["9", "8"], ["الذ", "ي"], ["غ", "و"], ["غو", "ي"], ["r", "o"], ["ro", "o"], ["roo", "t"], ["1", "14"], ["الس", "مو"], ["السمو", "ت"], ["10", "0"], ["الق", "ص"], ["القص", "ص"], ["ح", "ور"], ["7", "6"], ["ش", "ي"], ["ط", "اقه"], ["ش", "مس"], ["3", "4"], ["ير", "وا۟"], ["8", "2"], ["ان", "فس"], ["عليه", "م"], ["الح", "ر"], ["الحر", "ام"], ["س", "بي"], ["به", "ۦ"], ["10", "5"], ["الا", "م"], ["2", "9"], ["5", "1"], ["ي", "ط"], ["7", "3"], ["الح", "ش"], ["الحش", "ۡر"], ["رج", "اء"], ["الق", "د"], ["الن", "فس"], ["خ", "ير"], ["اللي", "ۡ"], ["الليۡ", "ل"], ["ول", "ايه"], ["الح", "ي"], ["ن", "ب"], ["نب", "ات"], ["نبات", "ات"], ["ا", "س"], ["ت", "ج"], ["تج", "اره"], ["ح", "ض"], ["حض", "اره"], ["قد", "يمه"], ["الك", "ون"], ["8", "4"], ["ع", "باده"], ["ق", "ي"], ["و", "ال"], ["ه", "ي"], ["تو", "حي"], ["توحي", "د"], ["الح", "ق"], ["الك", "فر"], ["الكفر", "ين"], ["كفر", "وا۟"], ["خل", "ق"], ["الع", "ق"], ["العق", "ل"], ["وح", "ي"], ["ي", "وم"], ["ول", "ي"], ["ولي", "ل"], ["1", "10"], ["ح", "قو"], ["حقو", "ق"], ["د", "ين"], ["الم", "ا"], ["الما", "عون"], ["ب", "حر"], ["ق", "ران"], ["10", "6"], ["او", "۟"], ["او۟", "ل"], ["او۟ل", "ئ"], ["او۟لئ", "ك"], ["ول", "ك"], ["ولك", "ن"], ["الز", "مر"], ["16", "9"], ["ان", "م"], ["انم", "ا"], ["7", "4"], ["6", "0"], ["مح", "به"], ["ل", "و"], ["جم", "يع"], ["الم", "ل"], ["د", "ر"], ["اللي", "ل"], ["ك", "ون"]]}